3EA167A5
BD5B354E
BE60747E
BE20A609
3F295743
3ECED3C3
BE865F0E
BEB9D9F4
BE8EED3F
BE45480D
3E99D4D6
BF01BBBF
3EEE21C7
3D9077D7
3E5BD623
BD4D18BD
3CAB48F6
BEC8477F
BE33E384
3F3A3F05
3F576C34
3D96E6C5
BD8965C4
3B7D4B12
3D8B2BA0
BF579ACB
BF796845
3E9C094B
3E10E4FE
BF809E77
3E3C2DF0
BFE4DCAB
BE8B61B2
BDE43F20
BED1FDA7
BE830CFE
3EDACBB0
3D80F4B4
BD46214A
BFD9E447
3E4BBCF1
BE9A8F39
3D9B736F
BEF453DE
BE5B0860
BFA81B82
C00DDA02
3A0D0B5A
3ED3678E
3CAFDE61
3F882DEE
3E91D0F6
BF4B55B3
3F2376FD
3E44C0A7
BF45A16D
BF58BBA2
BF2A6D7F
BE4FFF4A
BF8874E5
BE0DEEB7
BEC6549E
BD026330
BFA411BF
4004AD48
3E5CDF9E
BDE0F088
BFD17DB5
3F9B31A8
4000BE15
C080EC5E
3F81B615
BDD22A20
BEF6A553
3FEFB2BA
BFDB6ADF
BFA25394
40250DD5
3F519CD0
BE92C958
C033DADD
BDA84266
BE386D47
3FA93A87
3E6C805E
403DC883
3D2CB92B
3E2A75BB
C09F9442
BFE7B926
40233496
C00CA30A
3F812763
BF8DDC63
3F6773B0
3F86F8E0
3DAED1DC
C002202F
BD253BB5
3DE8CE51
3FF90E5E
C0AE7B0E
3F79FC34
40464ADD
BFE9FEB0
3F9DD25E
3F514D25
3E792214
BCC4A6B0
40223C17
3F0CC4D7
3F0BB247
C0B3E9B4
BF3A4899
3F4FD7DA
3F8D5B92
C020084E
3F885E7D
3E90EA4C
3F24D956
3EF24D96
BEBE05AE
3DF9D592
3EAF491A
C080A459
3F6E42CE
3F21D8B8
3FEAD953
3FD87AAC
C10F9848
BD36E0DC
C110D307
C137563F
4016C7B9
40C53409
3FA6FE5A
BDA409E8
BE235E71
BFCEEF53
40F30285
4011CDD8
409313B7
40E42C32
BE9CE516
40FDB4D6
407C4EA6
BF4CE17D
3F93411F
3E76F1C2
4096BA44
C138D14C
C05EBF34
4095F5D2
C007DAC3
3DA04D41
BE1F969B
C0BDA5BF
3F6F20A2
C0307B76
403FFBF2
3FBE5E59
BE08D723
40E7D83D
400AC12E
40975441
40AED0CC
C13916DF
C0F46624
402EA261
BDA27320
3F9599DD
40060D10
BCDA8080
3F9C7F06
BF5C6AD3
3F6BFF9F
411E2C5A
41043619
3FAED787
C076F9A8
40121909
BFF244C8
C21C37C6
3EE86AF1
4008F999
3ECADE67
BE1ED63D
40A172FA
BFD0DC64
C0A9D056
C0448C10
400CC1D4
BF7ABD2B
BF0992E9
BD9B2542
BE1119CC
BF9768B9
BD5DCDC0
3F25ECD5
3E4A72EB
BE76361C
BE10E956
BF82D306
3F355C74
3EBE3E73
3E8C4318
3E25820B
BBC4F950
BF2FB9AC
BBE1AECA
3F2040CF
BFB902EF
BF93EABB
BF9444CA
3E518370
BE880F0C
3F4AE0F9
BF38C802
3F28AB82
BF62E377
BD10DCF7
3F8B0758
BECFADAE
C09C1D41
3E80A6DC
BE48A253
3EA9EFC6
BD8886BB
BF0CAF94
BD3FC614
3E30AD65
3EBAACBE
BDBE28F9
BDA0EC5F
BE6235B4
3F802F1C
BE045CBF
3E9798E2
3E64844F
BEFB23C9
BF56D6FE
BCE72ECB
C0874B75
BF0C2F85
3F211210
3D912CAA
BD37D1E0
BDC9BF3D
3F8D150B
3F5FCFC8
3E996CF0
3C1D4310
3ED77BBE
3F10D97E
BF9ACF03
3F13E6AD
3F424104
3F4ACCB9
BCDAEC40
3F50E8CB
C0525283
3EE4E4EF
3F76D200
BFD3F29A
BE54791A
BECDF1C6
BF882D71
BFA5F6D3
3E5A148F
BDC60E18
BF90CC6B
3C196114
3F8C6ECD
3F896A62
BF26B322
3EC6293E
BF7564A5
BF26E30C
3FDEE949
40026AAD
BFFA280D
3F951B1F
3EF16965
401F696A
BF16BCA1
3E0E12B7
3F9A7DAD
3FB03B43
BE148DA0
BE1C8048
BDB0D07C
BF118CC5
C00E8081
BCADF6D9
4009241B
BF656965
C1619AC7
C0121900
400CC272
3F1C5021
BE90383B
BFAECEB1
4001442D
3E89B7BE
BF9AE1EA
3EEFB048
3D8491BA
3F8BAB8D
3ECC0C3F
BEB570F5
BF1829E2
BE86AADE
3EBAA148
3D8872BF
3FC76360
3FD2BD8C
3FC9D795
C0E109AA
3FC6493D
3F9DAC2E
3FECCA83
C050DE9C
BE50A8B7
4060269C
408E48F1
3E2D80AD
C03BB324
3FF70804
3DCA3A44
3E6069F8
BFCDF7C0
C04C5E30
C0888376
C0099A0C
BF16AC9A
BE793987
BF0FC685
3FA3AA71
409D4ED9
BCA24A41
406C4A45
BF9795C4
C12E9CC3
4027D894
BF879612
40B28561
4005DAC4
C09C35E3
C2108223
3F653DD4
BEFC02C6
3F2AB55A
BF2286D2
3F835002
C0F82447
3E13CADB
C10197DF
4048A20B
BFC4B41D
3E88AB2D
BE00E3FC
40910795
C0B8DF29
BF30211F
BE91469B
400DEAA5
408243CD
3F129F48
C07723EE
BFEA50AC
C0A44CE9
4043AD93
402F77F1
3E9EE817
40573FA7
3FD5FAC1
BFF6A4E9
BEC9350E
400C7152
C00E36A5
3E2C9898
3FBA1CC5
3EE38BA2
4089784D

