3F58424C
BF5D98DA
BF872E56
BF3CFFA5
BFE19AC2
3F2F1E64
BD2E9AAA
BD9133D1
BF31388F
BCC2E4B0
BE3F327D
3F1C1809
3ECF9638
BF0D3043
BE45F67D
BF8FECB1
BFA99880
BFA0E17D
3EAE17D0
C054644D
3FC0A936
BF1D1BC8
3F1C6ED7
C00E9309
3FCD59F4
4006B561
3F15DC52
C0144F45
BEA9044E
BDF8EA35
C04ACC71
BF2E26C4
BF9184EC
3F908465
BF077EFE
3E31E7BE
BF1F9852
BEE78BF6
3ECFDAD9
BF6DA5E9
BFAB9ADA
3E2480C7
3F4E5D66
BF23D875
BF46FEE7
BE6A85F2
C03C5F5C
3F02FFD5
3D11CFC6
BF54FBCE
3D6336F3
3F94FC45
BFCC92EA
BDC4D6A0
3EC013F8
3F65E66B
3FE4281E
BF8DD8D5
3F153CD9
BE5260B1
402C3C5A
3D54BD81
BEED6F61
4007B681
BDA3B1E8
BDF8D448
BE489F90
3D86DC30
3E2748A4
3E1E13F0
3E3B5A60
3E63C4C8
BE2F666C
BD644680
3CDAA300
BC49D480
3DB08028
3E597094
3D9E0730
BDD6D108
BD2B8120
BDBCAD90
BDA01748
BDB86B20
3E6ECD04
BD4FF730
3E5592C4
3E6C0CF8
3E52AA34
BE48C70C
BE799AFC
3CFFD220
3E3411B4
3D04EC90
3DD94EC0
3E44ADA4
BD5AC2F6
BEC7CEF5
BFC1B681
BF701B3E
3E4FCF60
3F9F1AAA
3EF5747A
3FE20B1C
BF990AC9
BE277960
3F98036F
3E2FD222
3FCF2B71
BFA0190D
401A4D9D
C0305C93
3C2B9DFB
3FB952B1
3F3FD2CD
3EA6F9BC
3D973329
BF8D9DB6
BFC29A00
3FE10BDF
BF1CFB6B
BEB3FEFA
3EC03BF1
3F2998FB
BE93BD45
BE2CE6C5
BFB61465
3DD42E01
3E291606
C0196B34
BECD8BA7
3FC4AA77
C0907798
4028167C
C010D1D1
3CB0360A
BFA6B45C
BD82B420
400B5008
4013400A
3F880186
C0809D5B
C038EB65
40A08416
C02B7581
C087DF01
BFFDFD96
C00EF43B
C08DF6FE
BFAFBEE7
3FD753E8
C02219E7
C0075A57
BF773329
C07387D1
3D9EE565
BF278B58
BFA30440
BD82424D
BE8530A8
3F18D8D0
3FB373D9
3EB62D71
BE1846AD
4019D573
403CCF95
3F02B6CE
BEAEBAA6
3F9990CA
BE8B2580
C00EDFE7
3DFDD1E3
C0B076DB
3DC51314
BF040BB6
C08D21F9
408AB1A9
BE48CE07
BFA8F8FB
C0443312
C0A20B36
BFA9014E
3F711879
3FE21684
BFAEE2D0
BF493F24
40103F7A
403137ED
C03F5B0D
C088942C
C076422A
3F551A46
3F744F94
C05D833B
3CB0770F
3F679673
3FC7E796
3DBC1590
3F858F3B
3FB675EF
BEA4089F
BD032617
401C98C6
C05C201B
3FAAE26B
3FC35E9B
3E2E9CE7
C0037F80
BF70A365
BEF88BA1
3F91CEF2
BF6866E4
BE78D2A5
C018504F
BF7AC285
3DD94DC0
BEACD5EA
3E4ABFF9
BF1B0275
BF573139
BE2025FA
3E42C1BB
BE8C2674
BF10BD50
4057DAE9
C03285F3
40483921
BFF52A15
40046C86
401ACBB3
C005365C
BEBD92B7
40727294
3E18A20F
40506C0D
BF3EA6D1
C0D32409
3FBD34E0
3FB3C95C
40B78638
4024B71A
3FC072A7
BF1CBBBB
407C63E0
BE8016C8
3E7FDF55
409611BB
3FDC0285
3E419547
BDEBF5AC
C06AB36F
40421E99
3F15D324
3FF931EB
C015C1DD
BFA3BD93
BDEEFEE8
BE0E6574
3DBB0A90
BDFAB760
BE7B10E0
3CA09B00
BE0E648C
3DF9BD70
3E515944
BE524144
3D3B6DB0
BDFFFF00
BDA86CE8
BB99B800
BE649950
3D28DAE0
BE62290C
3CD82D40
3C295180
BDE76388
3DE37890
BE728E7C
3DCBA918
BDE52900
BE71C2B8
3DD30038
3E0EE36C
3E61BC7C
3E50A9EC
3E4F5B8C
3E61DD44
BE20D634
3F15286B
3D1C73E0
3E0B4FF8
BD41FC58
3CDA6C3D
3C85F038
3DF69DA9
3C98418C
3CE18F80
BDBE22A8
BE15AF28
BDB8BB43
BE80F874
BE025F5C
3DEE796D
BD823F36
3E0C1929
3E3CF3FC
3ED22FA8
BDD531A8
3DF21A10
BDE46EC4
3D58ADA0
3E78EA86
BE3C00DE
3E699006
3CF9488F
3E0406A1
BE96296B
3E115EDD
BBA84419
3E25598D
BFCC7F65
BE05BFC5
3F37D24C
400885EC
BE373632
BF8D81D3
3F3A90FD
3E5BBD54
BF41828E
BE6AA2A5
BF71321B
BF587B63
BF4D3A5E
BF2469A8
BF66B725
C00B295D
3F36CA1D
BEBAF849
3F185093
3FBA5C7F
C14B1591
3F6A79F7
3F85BF06
3FE487B1
3FC22BCD
3E8995C7
3E244315
BF86AC16
BDBDE93F
3FA8878E
3EC74DF1
BFB37EC9
3E31B2C1
C0B613B5
406B394A
401B2341
3F7CFB57
3F53FF61
BF600EB7
BDE0F353
C0352318
BC8C2CC4
C021EE18
BEE2A742
BF0E2ABF
BFD3BB6B
3F23E512
3F3B5A3D
C012A536
BFC0BA93
C002F394
BF339E2C
3F633900
BFCFAD61
3F5483E1
3E8F7C18
BEF018CC
BEF38096
BD6C3B16
BF7A23C6
3E8B87C9
3F0597D3
3FD67B9C
40250F80
3F67E64D
BE6BF4CC
BED81B67
3D0B73C5
BFF7D0B8
BF342EA7
BF906141
BEF0FE49
3EEDF03B
BD4FE42E
BF0D1C58
BEABC25F
C082A3DF
3EC0DA83
BFC96DC5
BE13DCBF
C0451EB7
BF0F415A
3EC96D20
400D6C5B
BEE78689
C02A77E8
BED2DD2B
BF05A109
BF32C4AF
3F8E7A3B
3F28E20B
BF227AB6
BFA432F3
3F170BB5
3F2B743E
3F859337
3F9C2F69
3C59D577
3F818838
BFB73FAE
3FE2E2EF
3EE6C165
3E83F55A
3F934AAC
3F3E9504
BCFC60BF
BEE620DE
3E282F85
3F96DA77
3F4A7038
BEB4D850
C001992A
BF4F035A
3FBBA8AE
3F9B3F97
C07EF3BA
BFD57A9E
BD825D2E
3F55CA21
BED0AA34
3EEA58BB
3D204B06
BEF6D18B
BFDAF4EF
3F69E2C6
3F0CB4DF
3F68FFAF
BD9CE27E
C08946A7
BF8A2F0D
3F818ACD
3EBF363B
3E114EED
4014BCAA
3E2FB642
BD619C0C
40128C58
3DAAFDD2
3D5C4313
3F33451E
3F093452
3B024BDE
3FB82466
C02606D7
C04FF072
BF03F45A
BFEF7632
3FFEA7B3
C118230F
BFCB733F
C05DA2B0
BFC70820
C0842B6A
BDA43FD0
BFDC2536
BF25687F
BF17C1AA
BFB51B2C
C005CAE4
3F8659B8
3E7251D5
3D8AA865
BE33ABE2
BE87103C
BD650FF0
BE646528
BE241FCD
BE36F079
3E64DDB8
BDB2CBB0
BE884406
3CC9EDDE
3E163D82
3DA25767
3CB2EA27
BCF6A4AF
3E270D9B
3DB7ACD7
BE411E5D
3BC58B15
BD038F90
3DD70C80
3DC66848
3D3E23D5
BD90B525
BE595CD7
3CECAEEE
BE927BEC
BE106343
BE2BF933
BDCCE673
3EAA39EE
40929061
BF1144F7
BF6079A9
3F991FDA
3F698DEA
3F0D22A9
BE92B62C
4023DA25
BF8980E4
3DE558C8
BE10534B
3E0854B9
C008C295
BF86AD50
3F9066EC
3FCA08C3
3E9EA839
3F25F190
3ED383F7
3DE48B85
C0F94E50
BD660875
4051F44B
BEE07FAE
BEF964B9
BFDC8381
3FD559B1
BFF343D9
3ED442FF
BF8A0AAD
3EA4B7DB
3E1CD4AD
BEDB0AE8
BF380E2A
3F423450
3FD00867
BF3AF77D
3CB69E77
BE75C5BD
BFA710C4
3FA98A92
BD9AE1AA
BEE2DD46
4005FE0F
BE213782
3EB72E7F
BE783A67
3FE935C4
3AD076D1
3FA46170
3F15111C
BE73F5BC
BEB88592
3FDB15CE
3F623B52
3F3404F1
3EB2C880
BDFC0568
3D8BAE48
3DC6E671
3F73871E
3FE63A70
3FA4AE4B
3F664A46
3F3231A9
3F66B439
3E5586A9
BF72A74D
BFA8C132
BFC6DCBF
3F43CBC0
3F814CD2
BFFBA52D
BE7EDDB9
3D198FF1
C034F7BE
C0061D12
BD5E970C
BF43B2DB
3D07E706
C0CF7643
BE766E04
BA6F4D7B
BEE88BFC
3F02751E
3EFE74E1
BF87A0FD
3F34767B
3EC16EFA
BF046332
3EDC998E
3FBD677E
3F62D360
3E033514
3E1F300F
BF13AA4C
3FAC7FE3
3FA9FC30
3FDC6B49
BF56AEC9
3F6471CE
3F34DB61
3F163CF0
BE8E6C62
BEC7C51D
BE867FB7
C007BD69
3E8D3DA8
40A49042
3FA6C5DC
3F973F04
3F7A7882
C0011A4B
BD4E6B22
3F9807B8
4023FBD1
C0971E9D
3F312F05
3E23A4F9
3A1ADCFE
3E9374BD
3FEC83AB
3F259A1D
BF98566A
BF8B3171
3E62A2D0
BE4DD981
3EBA9FD2
3FC09DA7
3F1D65A7
3DF24395
3EF88B83
3F98DF18
C001F5FF
BEA7E199
BF79FD53
3F67E0C7
BE843233
BF488FE1
3F0321D7
BF7D043F
3FDAAAB2
3FB84FCB
C004A026
BF839D98
3FA384BA
BF3E4CC1
C02D5D54
3EC66FB8
3F0A45E2
BFDC7DAB
3F083F9D
BECB35FD
BE0872A9
3F3E37BF
3E9D0BA1
BEFA6C80
BF38B479
BD3FB5C9
3FAB2D03
C085E3AC
403A23B2
BFA27095
BFAA2EE9
3EF71F89
BFE4D9B4
BF7CF8E6
3FDAB7F9
3F92ACA0
3D888067
40467A06
BF8ABEDE
BE34AD54
C0736132
3F46C8FF
BEF525E7
404CD130
BF1E0460
BED0860D
3FCAAC4E
BEF9A21B
3EDC59B8
C018649E
3FCA4F9C
BE5C9DE0
BF6446DD
BF00DA2E
3FB53DA5
3FE54F69
BDD3AA34
BDB2E3EB
BEED70B4
C004FED6
BFC77E41
BF0B385E
BF54340E
C06FBF25
3E977F80
C00381F5
BF8D3230
3FA721C1
BE46D332
3F81F16B
3F9BF22B
BE3A149D
BFA561AA
3F0EE169
BECCFF48
3EFD50B0
BE7004CB
C037F116
C051C15C
C0380141
3F680BC6
3F125855
3E03ED34
BED59F0E
3FA34E17
3DBF0DF3
BDA55198
3F6CB151
BF4EFCB0
BF3429D4
3EB612D1
BEBB56F9
3F2D8B64
3F010D0D
3C48CC09
BE828C7B
3F6FC6BE
BEB28C15
C010DA61
BF10ACBA
3DD7CA51
3E93012C
C02D77F2
BF418B30
3E9E4200
3F174A55
3FACC93B
C068823C
3E047032
3D66A562
BEECB120
C00D2EB2
BF92CDF2
BF14E494
3EE8556A
BFC39C23
BE6A00BD
BE389B2E
3F236AB3
3F0B5EB2
3D6A873C
BFFEC97E
3E98854C
BFFCB0EE
3F755BC6
3DA89F0B
3E8CDC19
BFA8462B
BFC1D4E1
BEC2F20C
BDF7597E
BF8F813D
BDA9A333
BF191EBC
BFBB4C89
BF108B66
BF8CC690
BD199C02
3F8690C6
3C8AF664
3EA911B7
BE112489
BEB308A4
3F9251F0
3F6748EB
3F6FF799
3E84E7BE
3EB19BD1
BFB6CE0D
3F4F2DE2
3EECB0EB
BFA6E4F4
C0042716
3F9EEDD9
3FE22CD2
BF766BA1
3FB4B782
BCEE3A3A
BEEAB4B7
C013886A
4033BB60
C0016C5A
BFB1BE18
BFA509DE
BDB9991D
3F671417
3DE9CDBE
402E6ACF
3FBD8DA3
BFB2806D
BEB1D192
3FBCF6F5
C03D8C79
3E4F1E4A
BE250C46
C07B083B
BFF3F65B
BFD096D2
BF8EA735
3D224983
401FF20A
BE764BE5
3FF297D5
BE91E0C2
BDA6DDA8
BEDE384F
BFFCE580
BFDA1B1D
BDA0F07B
BF95CF3E
BDF71606
3EBA96CB
BFCA1B7F
3F13E6F5
3F32E351
BF627B30
BE9DF78B
3F242821
BF2A5309
3F321539
BFD67F06
3E300105
3F695DAC
3FDF00A6
3F72D4FE
BC7D842E
40008149
3EE0E69D
BE1F665A
BE766A20
3F6266EE
3E6C110C
BFEB42A0
BFA49DCE
BDAD7EA2
BEB2F29F
3FC666F6
BEDAAF7B
3D345401
3E83781D
3ED94D05
3F3C246E
3FAEC399
C0760736
BF2FB140
BE608979
3FBBBD28
3E5C1994
BD82D501
3F057829
400FD682
C0CBD9BF
BE86F100
BF9E6B3D
3EF4A931
BF432C46
C05EFDD0
3EA8EDEA
4063A903
3FF2CD3E
3F771C6F
3F5B8DAD
BEB0F289
C015E49D
3F600FB9
BE1EDB45
3F9C54FC
3ED366B4
BE9D28F6
C00DBAEA
3F23DF2D
BDDCF3B5
BFA9E132
3FA6AF78
BF9274FB
BF84419E
BFF3B67D
BB83A9BA
BF4BC60A
BF1A288D
BE40AD3B
BEEFA87C
C013CC1A
3F93A2A4
3E56AC6E
3F47945A
BF193591
3EF8559F
BE2BC372
400013C8
BFA7B937
BC1CFE06
BF660406
3F993B43
3EC18A52
3E258C76
BF5BAEA3
C0092AD3
BE86669F
406DA103
3FA63429
3E8ED21A
C02A705F
BE824A58
BF05CE50
C0597EFF
3F6BBFB5
BEC7EA58
BFC3D401
C0297699
BF67262E
3F15EDEC
BAF10C36
BF555EA3
3FA6FDC7
3F2196C3
BE0576DF
3B85B082
BBCFE6BA
3F28C51A
BF8ADCE0
C01DD2DB
3FB73703
BE9A5DE9
BE7F104E
BFEC0045
3E3CBEF2
BE87D23D
BF9F0936
C0A14A6E
3E84FAC5
3F14E4B6
BEB8254A
BF964777
3F5588B4
3F394715
BE7C837D
3F72EF8B
BF171815
3DA58DC1
BE59BF7F
3F05D7A0
BFCB5E40
3F59047B
BE9279A6
3E3D493C
3E2A0B14
40079C20
3F4C6501
3F3B0C3D
3FE07BDA
BDD8C542
BD772E5E
BDA56A16
BE831510
3E2E7DFC
3F513103
3EFA5B70
3F6D846D
3F18B967
BD2BE816
3F4ADF30
BEB02DFE
BF356B6C
3E816F0C
BE53C132
BF5D89DC
C0052499
40AE49FD
BFD5739F
3F0F4096
401282A3
BF8F4AE7
3F36E183
BFF0F79C
BF7B8E61
BB755A98
BF408A91
BEB02C17
BE7D72C2
3E6F18FF
BF9C7D68
3FBFB9B7
BF8900C9
C06033BF
BFDD2A9A
40127C46
3E1C215E
BF879DD5
C09D93DC
401AAB25
3F9E95D0
3FAA790A
3FD8EFCC
3E964EDF
BFCE6EE4
3F55A15E
4048FBAE
40832D74
3EF2E36E
BFBB702E
BE0EC426
BF46E9AB
3F03F491
BE09BA41
3F44285D
3F5BC787
3F8DF6C7
BDDDC233
3F0A534B
3FF41B2F
BE193572
3EF1B26E
3F01AD66
3F0593A9
3F1DD29D
3F7711BF
3F5DB045
BE45417B
3EA46C4A
40011A15
3F3171E3
3EF282FD
3EB05553
3F62A98D
3D436F57
3BA1B78F
BE243BA2
3F2199B9
3F0171C4
3EC539F5
3F1C6F68
3F96101C
BE032D49
BF38123C
3F56F2F5
BF19FB52
3F83675C
3F896978
3FC280F8
BE4EB6A5
BF98DC54
BDFD9A05
3E1BB7EB
BF193686
3FDCD17F
BF8FAFB6
3F18E5E1
3EF74C0D
3EA89390
3E76AD20
3F1E4234
BFCDDF51
BF4B52D9
C03B33DC
BC3BB2C4
3FCAF67F
3EB92105
3F8E12C2
3CBA7CC8
BF30F059
3DF890F7
BD5D9417
4000ABBF
C128D7C9
BE9D66B1
C008F814
BFC6ECC9
400C7F0A
BE7E33B3
BFC63BB9
BFFED0E9
BC0BEFB1
BEC1268D
BFA70B21
3F1D43F6
BE9597EC
3F94EA55
3FEA8566
BFA1B2CE
BF5DFDF2
3F403D87
3D2E20C0
4060635A
BC91B7AE
B94F6822
3F47C0CE
BF80E6F6
3F5585AA
40516E8E
3FF53FF9
BCE94E48
BEE4D0DD
BEFC1B49
BFB6A781
3FB5C3BC
3C8BD4B9
BF875E69
3E13A3FF
3F23EE4E
BFB2000E
3FAAE164
3F38868E
BE8211B9
BE9EC902
3F1DF849
3FCEFFD1
BEE252FF
3E418CAF
BF105CD0
BFF44D21
3F502EF1
3F2020F9
3F983719
BE8FB1CC
3E9F48A7
3F1970FD
BE785FE4
BFBFF11A
3F1671DE
4007218E
3F6E7958
3FB5C676
BF0A6A48
3F3A2BBE
3EA7B0B0
3E9188B7
3F46FAD4
BFE7BD9B
3FA8CFE8
3F8A74F8
BF49D11A
BFEB03E2
BFD58CF9
3FB95746
BFAB1C67
3D1CA9C0
BFE97C33
3F54F3D8
4059F0AD
BD1C7601
BE83B152
3FB79154
BF378BE8
3D0B9591
3F826962
BF2A5BDB
3ED4D269
BA9554A5
40098728
3F3617D7
3EEC9FF6
3F204915
3EB0164B
BF98D029
BF0B0FC4
3B5548C9
3FE175EF
BF512A67
BEC1D053
BF84669B
BEE2D4E6
BEC36E55
BF3D5E5C
BEF16AC8
BFCBAAE9
3FE8610C
BFEDE61F
BE3BDEE3
4005A99D
C013C7A6
3E88BE92
C02C495C
3F144ABC
3F5BF423
C0ACC67B
3EC86709
3F01D75B
3E837A47
3DCFC7C0
BF93AF4D
BFFD4CBB
BE97F455
3E46E47B
3F14F601
BFAE431F
BFD8C47B
3DAB5D72
BF24D17D
3F8EC5E5
BF0CD2D0
3F611EDA
3F83A4F5
3E691850
3E27834E
C0D464F1
BE9837DA
3E952189
3E7E31DA
BF94BABA
BDB8CA7E
C0217527
BF88E8B1
C04FC547
BF1E104E
C02A1D91
3F5D1D51
BFFB73E5
C019F44B
C02A891B
BCA58CFC
BFE7E184
3E0E7DF6
BFED98E8
3E0FAB70
BEBB315C
BF9E5926
BEDB088D
3F56FE78
3FB52770
3FDA81B0
BFD92A47
3F16C286
400E03F9
3F9A2A7B
40D54279
40A2F1AC
BE067763
C06A0112
BF9B584C
C014F572
3FA825D6
3E7BAFD8
C00232B1
3E140D89
BF820580
40FC31F7
3F8AB235
BF3C7729
BE8B20DD
3FCB9921
3FF1FB33
401D7F8A
3E226656
408763A8
40D4C972
40389E27
3D7F6EF9
BEACB91A
C04C7A67
408C54DE
BFDCB682
3FB5A3CA
3F8E385E
C04F59D1
40028D6C
3E7D492C
BFFA70E4
C01DE640
3FB0F6CC
3FE360E6
BE0DA458
3ECC2BA8
C00E3E4E
BE451AD4
3FD74FE8
3F8CB3B4
BD171D92
C00B20DD
BF0027F3
C09E9554
3F11482E
C11FF791
3F6D24C0
C08FE05D
BEE8D564
3F75E6BE
BEEE0E94
BD5FE88B
BF60BECB
BFB50B10
402E6876
3F3DC8BD
4000B8CA
C014B4E6
3F80BDC1
BF11AA61
3E326104
3EBAF94E
BF9A783A
40001D92
3FAB7CE3
BE881235
3F309161
400C9B19
BF21B743
BE2E2D62
400E2763
BF728CB8
BF489FAA
BF5D9110
BFFA7642
3F8BFF4B
C01E8327
BFD8EAED
BE1A91DB
BE3C8D2D
BC0FC67F
BF7E74E6
BF0736BB
C0062F49
3F762155
3F91F184
3DFC7E8E
3E937865
BF65D267
3E501DA8
BF1D8F82
BE4DC512
3FB5499D
BF29BB58
BE9764BB
3E82671F
BCFBE8CB
3F9420CB
BE6F2F6A
BEA52561
3D386DFA
BD70C1DE
BD71832A
BF19E2A7
BEB1C9F2
3F885F87
BCC9BFCB
3FB97A21
BE82B1EA
3F111FC1
BE8D2D11
C1173EDF
BFCFD960
BE506B9E
3E43712B
3F296875
BE06ABC2
3EBCB185
3F215BCE
3FA4C011
BFAA0A0A
BF8A3876
BE715874
3DC13F07
3EA09DB0
3F214C96
3EC0D4BB
BF7D73FE
BF64B9AD
BF149251
4037F280
3F19032F
BE2E913D
3B88C9EC
3FF471D8
3D631A8B
3C65D627
BCB6D1F6
3EB43C23
BD4B78EF
BF2B9797
3E3E2925
3F301D98
BE872BCB
BDD60CB0
3FA0C474
BF06E9BD
3F81B04D
BCD82F49
3EB4EBB5
BFDCF710
3D5BB118
3FB8E361
400E187B
BE84E086
BE355F9D
BC059500
3C47B400
BE7D0CE0
BE6B3220
3E1941E0
3CC54040
3DBE1818
BDD31498
3E459DC8
BC98C680
BDEC6F78
BE303A24
BE042AA8
BDC4A480
BE417E24
BE67C398
3E71D790
3E721534
BE025C08
3DBBC8F0
3CE0ED00
BE423F04
BE0FACE4
BDB1A320
BE65D4BC
3D13CDB0
3D787B80
3D862F00
3E40A5D4
3DA922C0
3D99E658
3A911800
3FFC980E
3FE8C093
C0D25809
3E9C2F24
BF57168F
BF712772
3F99FF9A
BFA6089E
3F85BBD9
BE4DDFC1
BF516077
3F1EE44F
BF03D2C3
BFCDB111
BFB91571
3FD15285
BEF26DDE
3E3ABDFB
BF75A71C
BF69E42B
40A8C619
BE9E240A
C00F1374
BE5C9796
40336A98
3F3BA2BA
BFDA408D
4032C041
BE32A861
C04BF6A0
C020CEB3
BFBFE08F
3FBA8D70
C032C1DA
BD424E24
3FF2F91F
3FA525DF
4057314B
3E44A145
3F93457A
404AFCCB
BE912599
C01A5927
40004A2A
4085EFB0
3FC8FC0C
C017B2D1
3C1512D2
400433B8
3F99A194
4019F05A
C00D42CC
BE4DE5F2
BF591DA6
BF47CB44
BFCA11FA
3F485E2F
3EBE8039
BEFB26FA
405C011C
4046F230
3C15852B
3FA64384
40341B57
BFA60FD4
BEA0F7DC
BF26CF57
BDC86BA7
3E0C9763
BEE1E47C
BDA44E79
BDAEBE96
BE7995E1
BE955A0A
BEE3316E
BE1CB0E1
BFB2BA26
3EC3338C
BEB5B17D
3F8375C6
BE1A5ED6
3F1FFDE8
3F426D2D
BFBC1BED
3F80699B
BE095DAE
3EB10C74
BE175E26
3F4945B5
BED506E5
3FCCE987
BF09387E
3F4DAAAB
3CFCC1C4
3D9A845C
BE8D4F77
BF1107ED
3F9F5E78
BF2698BF
C0347B32
3F871EF7
405686CB
3E8623F1
3E0429F5
3D8C5A36
3E2E5185
3FB38852
BEE55EC4
BE6FF796
3EC195A4
C03A3074
4008A4D8
3F1ED122
BFCD1FBB
408525D8
C07624E9
BF69F591
3F6E75AA
3FDE7225
BE116A48
3F7643CC
3E499329
3F15425E
3F2227E6
3FBC4647
BE7BEC43
3E4885C5
3E3C9640
BF3A8F6C
3EA4407A
3EEEDB16
BE915919
3F0CAA76
BF5974EE
BF7CE26E
BF1F5566
3F400DCA
BD61ADD3
BE6E442F
3F4CEA9F
BFF4DD33
3FDA5FC1
3F2593C8
3DFAA5B9
3F5F5496
3F7D6BB0
3FA750C8
BF59C9B0
BFAAA454
3E926DB3
BF16665F
3E9FB838
3FB58B54
3CD83812
3DC91115
3F79FB9E
BF3AB403
BF26015D
3E89C382
3FE02EF7
BE0E7B62
4009CA2E
3E772789
403A1A6A
BE80DBA0
BF7796B2
BF97BAD7
3E8E38CB
BF8D6304
3D234BF8
3FDFD493
BE165965
C02A5091
BF83E908
401E0CCE
C094D50D
BD0E9839
3FC9F795
BFBD1C5C
BEEC9DCD
3E2BEBCB
BFC1EE92
3F240C2D
3F267E83
C0141CE5
C0487B2B
BF27442B
BFED6300
BFA75E34
C0280347
BFB569EA
3F194BC4
BD03E093
3F473A8E
3E9B6608
BE272384
BF01C4A7
3ECA7333
3F4F80CE
BFE8D75A
3F4BACA0
3E17FE31
BE5DBFEB
3DF6F8D9
C0B49F96
3EF30170
3FA52FA7
3F6D7192
3F272CF1
3E4EFB90
BD9D9327
BEB52093
BE6F4036
3E47FC48
3E966826
3F82406D
3F5C7772
BEE08014
3F4413EA
3F4D72A4
BE13CDEC
3F3DEF43
BFCC5357
BFAD4ECF
3F2AB3FD
BF7D7FD7
3E82D640
BC13ED3E
3F8B894E
3FF47954
3D7C5066
BDF4033E
C0510CE5
BE527364
3F89FC8E
BF970304
3FA24692
40446EE1
3EF35EEA
C0055F39
400F40B5
BF059C4A
BBB6E26A
3F692097
3FABD285
3F7850DA
3D5B2B77
3E915C1C
BEEF7A91
3E5CD521
BE464247
BF318A67
3F41597F
BFB5EB96
BE299AC0
C0089238
C0140C67
3CF4F7DA
3FE51064
3F012E59
C01F7B65
BE1DE910
3D340C38
BF6735CF
C03EDAC7
BE7804F8
40136532
3FA06160
C092B0A5
3CE68709
3FDB17D3
3FAF1017
C0FF8D75
BE8D829E
3D898D57
3F6F40A7
4000194B
BF8497F2
BE3ECBBD
BF999AB4
3E9A4D47
BF127BD5
401C8854
3FD42C12
C02CEB80
BE91EB92
4008E793
3DB34735
BF85E2E1
3F6654FD
3EACE876
3E987EC7
3FE46549
3ED8D778
BF58EADF
BF8B3F7E
3FD1F90C
3D2BEAE9
BE2BDEA9
3FBEFA76
C041C0BB
3F9320C4
C04B6305
3EAD8F1F
BF9FDF42
BF8075B5
3F397489
3EDA69D4
3E3AEE24
4014C09B
BF32A5F9
BEF57305
BD068864
3F8D1811
BF4EC055
BF33F631
3F51EEB3
3F3837FF
3F815639
BD38EC17
C07BA53F
3FCED53C
4003A0B2
3FC60090
BE277136
3C9B3E10
BF17561D
BF79E18C
BF1B57F0
BE23AF93
3F98F6EF
BED77F0C
3FA7A465
3FDA87D1
3F472EE8
3EE9003F
BE9C11CE
3E63DC1C
3F9F3776
3E36D024
C12DE51B
BEC8BF73
BFF32E01
C01E37CF
3FAEA2D8
BEAD290C
BF5FD1A4
BE2ADA73
BBA0137B
3DF50C9C
3F5F5055
BF93C878
BEDCDE49
BFE0C693
BF9D90CF
BDF93918
3F185487
BF0A023E
BF85D15C
3EC88E2F
BF00E522
BE94B47B
3B994F59
3F2BAFBA
BF184F62
BF415C50
3F955F4A
3F88225D
BF287601
3E07C52B
C0454C4C
BE41C4EC
C06E2BE3
BEF9BDD6
3F55B754
3CF9C14A
BFC46A6C
BF488F86
C0585414
BF6ED88D
3F16F145
BF673703
BE72B125
3EB93F79
3EF8C845
BF9B35B4
BFEE7F32
3E5729F7
3F73B332
BEDAC42F
BDA0B58C
BF2F71BA
BF39FE05
BBFAC810
3E8979F4
3FC31FD6
3E971F4C
3F0A8CAA
3E91C6E6
3FCBB24C
3ED41BE6
3DFEF509
BEA9BC33
3F400EC2
3FA40D0F
BF5AB9DE
3D65FC01
BE907C26
BDA8D247
BF0202CF
C0885899
BF07F9AE
3EDE86CE
BF90D1E5
3F273ABE
3E4AD95A
3DFBAF11
3E982E4E
3F900F12
3FF3C117
BFB38909
BE3BD6A3
C002D7E2
BE97442F
3EC29AAB
BE13D740
3E4C101E
3FE60CD7
C106DEE5
401D9FBC
BDE1C5E2
3F7F6F85
3F4A8F34
3DFDA195
BF934AB4
3EB0AFBB
3F9A3F39
3F0D605A
C055B11C
BFB57F98
3FFAB4EA
BF9874FE
3FF8DC46
3F4D349A
BFEC8CE8
3DD7D9BB
3FBF6C39
3F9B70BE
BFBB9C27
C10A9537
BFC9C4CB
3F567BCA
3FA4586D
3FA68D09
BFECDA6C
3F46A9D2
3FA2F60A
BCA09F9E
3F09E728
3F609DD8
3F25639A
BDB9360D
BE629E44
BEEDA646
4031B6AA
BFC25937
3F0BF23C
3F95EA6C
BE170A25
404FA027
BEC21B8A
3FB33121
3F565959
3FA9B624
3FB907D9
BFDF9369
BD351C9E
3ECA573A
3F8C4536
BEEEAA9F
BCA9568B
3E3B02EC
BF39576C
3F86DF1D
BF027E49
3FAADF65
3FC3FC23
3F8A2144
3E4D3BB5
3DCDE49C
3F60A8C1
C0127772
3FC66B4E
3FB36A82
3F1F5AE4
BE178D90
3E593823
3E4892A6
3F0F212D
3E2F3A61
BEBAA3AF
3C713588
BF15F310
C005DA2A
BF97D531
BE6C1233
BEA5C24A
3EC6572E
BF639D02
BD935DE5
BF576309
BF873277
3E8CE9CE
C032DA7C
3FB3A27C
BD92177F
3F60E132
3D023B78
BFF4C3B8
3E9DBEE5
40856BA4
BCA5F7EC
3EE56B82
BFC71ABE
3F488C14
3EAB0CB9
3FB3E830
BE582011
BD2FE904
3D19FA16
3FA98E96
3D103993
BEC7A003
3FD177B4
3FB7AEDE
3F967534
3EDA4D3C
3FD5C64D
3FA64C47
BEEB3BCF
BE81D6A0
BE827A11
BF3A3DDB
BFAD879D
3EA836CA
BEFA87DD
C04351BA
BF456EE1
BFE3C39D
BEE4D56C
3F359C20
BEC7890E
3F5ADFEC
3D804D5C
3F0703F9
BF248BF4
BE156A7B
BFCE3419
BF5EB8B2
3E649A1B
3E05DD8F
3FC064D2
BFB9DF38
3F75C888
4087E6FE
BF37AF71
3FCF6BC8
C01EE1A0
3D4442F4
BFAF5AB9
BF82DBBD
BF8F25D6
3D8C7634
3F5107EA
3FE38AF2
3E660B7B
BF47587D
3F5BF0E7
3F804FC9
BEA4B535
3F6CA9C6
C01DAE55
3E78D856
4001A417
BCFC5EB8
3C91769E
3F45EF98
BFF5DB28
C0067702
3E8E6BD8
3F935C8D
C01ADE6C
BF80699B
407A1E8B
BDFE5CF9
BEE99177
BF524618
BF6BDC16
C0487A61
3FF35C24
C0158241
BBADA55D
40302184
C038A4FF
40051E85
C00EE268
BFFB08EA
C0811680

