BF89F146
BFA84ADB
3E5459E9
BF2D3259
3EFB2734
3F892E04
3FCD5F97
BFBD1D2F
3F4D24B2
3F87254C
3F0109F1
3FDE4986
3F2AACF6
3F2340D1
3EB633F6
BEFD7D91
3F2305F4
3E992B81
BCFA56FC
BFF21C1B
BFA78CD1
BF4B54EB
3F8FE814
BFCF2E8F
3F99169E
BFF66D81
3F3C565D
3DA127EA
C04386D6
3CF3F1A2
3EAEFA8D
3BBC6ABD
C09BA61F
3F2E76C1
BEE83016
3FAF1283
BECBC215
BE9C2C69
BF9FD834
BF1CC107
BF9956E9
3D804FA5
3EB6CC00
BFE9424B
3F4A0699
3E87B59F
BEE98881
3F83119D
3FC1B35C
3F2B8A5C
3F8CA320
3F79F143
BFDEF65F
BF759224
3F08EDB5
BE9620C1
BF9E7019
3F0F6764
3DF94463
3FAF197D
3FD5F658
C0B0F2F5
3FC962A6
3F98C688
BF349BC0
3F74A8B9
3DB5995A
3FBB0FD9
3F66F09F
3F9E930C
BFD2646B
BEDD91CE
C004247E
BEE73765
C0295A6A
3C163E5C
BEBFC911
BF610BAB
3E0EC584
BDD43829
3EE28E0F
BD8A3859
3F3229A7
BF918A35
BDA3A1C9
3E72A7EE
3E8F47A3
3F24F6A0
3F7476EF
3FEFC0BD
BF34D1D0
BEA83412
3F4FA5BA
BEA7D1D4
3E88DD1C
3E263C04
BFA8D69B
BF91156E
BE544716
3F09378A
400A2D20
3FE55505
BEE06AFD
3EAC7128
3F9433AC
BF3CFF7C
C002B496
3EED99A2
3EB4209C
BE9C0232
BEA68354
BEA0DE34
BE8BCF9A
3E90CF11
B99E99CE
3E35539E
3E993A43
3B9A8B4A
3E847057
BE8ED187
C0576E8A
BF122B18
BFBDE3DF
3EAF08E8
3E31AF38
BF315C18
3E16C59E
3DDA4754
C0CA4B63
3F683EA2
3F116D0E
3F135181
BCF31132
3E9DF091
BFF2DACF
C00E9E71
3EA538AB
3B9B7FD3
3ED09F6E
BF6D99BE
3F8FAD3C
3F6E3D57
3DB60130
BF73D035
3F179F9E
BF9896E6
409C2B0D
BDC8553C
3DA49D52
3EFD4F12
BE976C72
3FB01A08
C10F049C
3FD5F783
BF5231CD
C0288B88
BF5BD546
3D69E666
BE835784
3FA8BBB9
3FB9653D
3E7845B8
BE8D2A81
3CBE1ABA
BF0D997A
BF44C84C
3FB612A4
BDE129DC
3DFB6FFE
3FB06794
3F90CC7E
3F32C2F2
BF0776FC
3FBC205C
BE2EA5C3
BECD8631
BF1516C0
BFA39228
40102A71
3F835A0B
BF734946
3F99719B
BE42A309
3F4BC037
BE3327E9
BEAA2BB6
BF6C250E
3FD7B60D
BFE9C960
C0100731
3FD0ADCC
C02C0AA6
405CE4A3
3F394FE0
3EE61CBE
3FE8CF19
BFFF9512
BFA13213
BF3E60F8
3EDD7BE0
C0D8FE3D
C00D7132
BEA6FCF4
3F2E834C
3ED60052
BD67DE4F
BF0E4E81
3E475C78
3F30F7D9
BE605056
3CCE05C2
3FD92B7C
BFC6F556
3FD7BEA5
3F5F16BD
BF5C73B9
3EE26B7A
BE4C2F1E
BF04FE2D
BF1314D3
BFFC2FEA
BE969C79
BEA14542
C097CE06
BF3F1098
BFD59664
3B5C3ED6
3F0F4836
40E07636
BECFFC90
40008028
BF06E1B3
3F59B63A
BF378FEB
3FA502AE
C09DDE66
C0D24A8A
C0837171
C050B5A2
40CEE960
3FE7521B
C0B5034C
BFF03B20
4048FC16
3EC236C9
BF146030
4004EF17
4074E7EA
C0ACD094
C05A1694
C06495CF
401E5865
C06FB2E0
BDA3E876
3E1DCC82
3FA9CA32
3EF6D901
3F87A1AC
3FEBB980
BF0FF5B0
3FB0A825
BF1D1C6D
BE4A006F
3F436047
3E185DDA
3FD04247
3FF7D008
3FFE977E
C0655918
3EB542AF
3E066327
BEC06C0B
3F982938
3F62CE6A
3E312C7A
3F6B11EA
3E2B08A2
BE8ABD31
BE8B4009
3F71852B
BFBF824C
3FCC7FD9
BDF30ECD
BE08CF30
BEEB4D72
3FBA98ED
3D6293F9
BF6C1918
3CDFECFD
3E1B4659
BE53D8FF
BFBFBB33
3F7AF961
3FB39B1F
BD95C2AC
3FA7316D
BF8BB077
3EA93994
BDA4D790
3F2CCCA5
BE54C854
BDE6F4AC
BE987F42
3F1434EB
BFD101F0
3F2D9854
3EE505F2
C0083C21
BE687618
BF7205C5
3F54B6CD
BE66F1A2
BEC4F58C
C01AE246
3F94DA7A
BD81F5B0
3EAC1AA9
BFA7D94D
3E449182
3F91C40A
BEB27742
C0072402
BF4C80E4
3E9CC384
3E85B3E6
3EDEA789
BF921C55
3EB84B8D
3F5BDCDC
BF30A73E
BD93F0EC
BF188E45
3FCCD0A6
3F78B57D
3DB63114
3F6503AE
C00D4311
3FCF6DA5
3F09B3A1
BF59B301
BED20430
BF3BEB0C
3E44F5C5
3F874DF6
3F0E7E50
3EACF199
BF2B6BA9
C00E2A91
C030F2C3
3F324742
BF3F260A
3EA1DAD5
3F81700F
BF12FC37
3D982E09
3F45C0B1
3F649A74
3F19E360
3F019E60
3F96A773
3FC470F7
BE989494
BEA5CD59
BFB09216
3FAB81DC
3F97BF2F
BEF2E54A
4043487E
3E1C063A
3F8F6610
3F037BDB
BC0777A1
BFEDBE5D
3F379DE3
C02B5FF3
3D3399B2
3E029073
3E5CCFD9
3FC46688
BF59DD61
BF851EE2
3E012290
BFAEA9B7
3EC536A8

