3F421E42
BF414C7B
C040B69C
BF00B48B
3F6017C8
BF898E94
401C9B74
400AEB2A
3FDC15A8
BDD44D5F
BF0359CD
400126A5
BF92F577
3FC47A13
BEB17FF5
BF8353C7
3F42CBC0
3F38B1A7
40162214
BF42E1CE
BF0B581B
40277D34
3EB57FEE
BF13C302
3FAC45A7
401BC847
3D903DE2
3F8CB78C
3E39EAFD
3EA6B31E
BECFA880
3F9FF58C

