BFF91D40
3FFE24B7
00000000
3FBE06FF
C053464E
C0C0809E
BE3095ED
BF7D5120
00000000
B8C74D78
3F9C5FC6
3FAEC230
BFE49B5A
BF9DF342
C02E93E0
BD804172
3F1FB3DF
3F9AC0D6
BF0CA31E
BF7405C2
BF116F0A
BE13A8BD
3EF1C569
BFBBC29D
3DA402C7
3FC36387
BEFB89B4
3E0BA341
3E8621FC
3F07FF4D
BE175A44
3FF0EE61
3F9FE228
3FDCFB2E
3F26B7D0
4019B72D
3EB9B403
BD42D450
BFDE45BE
3F05DE6E
3F421AAB
3FDE2A9B
BE82498E
3DCF3E3A
00000000
3FD9186C
BE6EB782
3F92436A
3F8ADEA9
BD285101
BE04183C
BE9CBFF4
3F93C7A6
C096C1D8
BD3A042B
4023E984
BD98E217
3F14D9AE
C04A9829
3F7D3985
3ED16810
3F836794
3FB15CD8
C04B47F7

