BDFE4142
BF67D9FE
BEC0775C
BFF405FF
BF5E1136
3C0EF4ED
BEC4FE7E
BEAA29C7
3ED32345
BF68ABB5
3EAD45F8
3E6FB757
BF96187D
BD0C7F0D
BF25F678
BEDA9C08
BFBC5600
BFA5600F
BFA06538
BF4815FF
BDC5C245
BF44BA81
3DDDA74A
BE480AAE
3EB383B1
3EDBB12E
BFDFF13A
3EBD8C46
BEEFFDA6
BF93A819
3CD18936
BEF621FB
BEA14681
3F094237
3F00C6C8
BE2C07A2
3F6FFE36
BED90534
3F4E1D7C
BBF5E35E
BEE210AE
3E28FC22
BEE4A069
3E899D24
3D9EB3F8
3E1C1DC7
3EAB0256
BEEA8A44

